<unk>	0
<pad>	0
<bos>	0
<eos>	0
▁t	-0
▁th	-1
▁a	-2
in	-3
▁the	-4
re	-5
on	-6
▁s	-7
er	-8
nd	-9
▁o	-10
▁w	-11
en	-12
at	-13
▁c	-14
▁h	-15
▁f	-16
ed	-17
▁b	-18
is	-19
it	-20
or	-21
es	-22
▁p	-23
▁of	-24
▁in	-25
ou	-26
▁m	-27
al	-28
an	-29
ar	-30
ing	-31
▁and	-32
▁d	-33
▁to	-34
▁n	-35
ic	-36
as	-37
ion	-38
▁e	-39
le	-40
ro	-41
▁on	-42
ent	-43
▁re	-44
▁l	-45
ve	-46
th	-47
il	-48
st	-49
▁g	-50
▁be	-51
and	-52
▁u	-53
ct	-54
red	-55
ly	-56
ig	-57
om	-58
▁wh	-59
▁for	-60
ir	-61
ce	-62
ous	-63
am	-64
im	-65
▁that	-66
ch	-67
ad	-68
▁is	-69
el	-70
▁as	-71
▁one	-72
id	-73
▁se	-74
▁hu	-75
ty	-76
ol	-77
▁was	-78
▁st	-79
ine	-80
ur	-81
▁tw	-82
ut	-83
ot	-84
ver	-85
se	-86
ith	-87
ow	-88
ndred	-89
▁hundred	-90
▁it	-91
▁con	-92
ation	-93
igh	-94
ousand	-95
▁thousand	-96
▁al	-97
ay	-98
ter	-99
▁an	-100
▁r	-101
▁with	-102
if	-103
▁(	-104
▁he	-105
▁de	-106
ive	-107
▁by	-108
▁un	-109
te	-110
▁nine	-111
ul	-112
ere	-113
▁two	-114
us	-115
▁at	-116
ain	-117
ist	-118
our	-119
▁su	-120
▁v	-121
▁pro	-122
ers	-123
▁sh	-124
ge	-125
▁"	-126
▁j	-127
os	-128
ight	-129
▁k	-130
pe	-131
od	-132
▁ch	-133
rom	-134
▁com	-135
ri	-136
▁his	-137
est	-138
▁ex	-139
ac	-140
▁or	-141
ich	-142
et	-143
qu	-144
um	-145
▁from	-146
ate	-147
res	-148
ld	-149
▁not	-150
ill	-151
op	-152
iv	-153
ity	-154
▁are	-155
▁ne	-156
ess	-157
ies	-158
ra	-159
ther	-160
ix	-161
ore	-162
ab	-163
ree	-164
ak	-165
▁which	-166
ven	-167
em	-168
▁y	-169
ant	-170
ment	-171
▁ar	-172
gh	-173
un	-174
ie	-175
▁le	-176
all	-177
art	-178
pp	-179
ard	-180
▁ha	-181
ical	-182
enty	-183
--	-184
▁unk	-185
ud	-186
oc	-187
▁six	-188
▁were	-189
▁this	-190
▁pl	-191
ort	-192
pt	-193
ber	-194
ame	-195
ong	-196
ough	-197
ction	-198
▁but	-199
ated	-200
ust	-201
ial	-202
ould	-203
ip	-204
ag	-205
▁tr	-206
ish	-207
▁had	-208
▁four	-209
▁wor	-210
ian	-211
▁three	-212
ure	-213
cc	-214
ome	-215
▁ab	-216
ast	-217
ition	-218
▁all	-219
og	-220
▁they	-221
▁we	-222
one	-223
nt	-224
ide	-225
per	-226
▁have	-227
ound	-228
▁their	-229
ell	-230
▁five	-231
▁eight	-232
ost	-233
ary	-234
ack	-235
▁ro	-236
▁af	-237
cl	-238
▁cl	-239
pl	-240
▁ad	-241
▁int	-242
▁man	-243
out	-244
▁who	-245
▁its	-246
ap	-247
ence	-248
teen	-249
so	-250
ect	-251
▁cont	-252
▁en	-253
ord	-254
▁me	-255
rit	-256
tw	-257
▁no	-258
ue	-259
ia	-260
ach	-261
▁twenty	-262
▁thir	-263
ath	-264
▁can	-265
man	-266
▁dis	-267
ib	-268
▁fir	-269
ke	-270
▁per	-271
▁her	-272
▁us	-273
▁also	-274
▁im	-275
).	-276
av	-277
▁bo	-278
▁comp	-279
▁T	-280
▁sc	-281
▁has	-282
▁first	-283
ign	-284
ire	-285
▁res	-286
▁seven	-287
ally	-288
▁ag	-289
ass	-290
▁go	-291
ind	-292
ru	-293
age	-294
act	-295
ond	-296
▁sp	-297
▁there	-298
iz	-299
▁am	-300
▁so	-301
ations	-302
▁after	-303
▁part	-304
ime	-305
▁other	-306
▁te	-307
▁comm	-308
ory	-309
au	-310
▁him	-311
▁bec	-312
ff	-313
▁des	-314
▁fif	-315
▁fe	-316
ions	-317
ater	-318
ans	-319
▁them	-320
ry	-321
▁some	-322
▁do	-323
du	-324
ance	-325
▁i	-326
▁qu	-327
▁when	-328
▁new	-329
▁--	-330
ok	-331
▁gr	-332
▁'	-333
ice	-334
ub	-335
▁Th	-336
▁been	-337
ars	-338
▁rec	-339
▁---	-340
▁ph	-341
able	-342
ile	-343
▁would	-344
▁out	-345
ens	-346
▁more	-347
are	-348
ph	-349
ose	-350
),	-351
for	-352
nder	-353
ace	-354
ult	-355
▁up	-356
▁pre	-357
een	-358
▁ser	-359
▁ind	-360
ces	-361
▁over	-362
vel	-363
low	-364
wn	-365
▁spe	-366
ings	-367
▁she	-368
ress	-369
▁acc	-370
ved	-371
▁mar	-372
ates	-373
▁form	-374
now	-375
▁nor	-376
▁A	-377
▁off	-378
ict	-379
▁cons	-380
▁will	-381
▁into	-382
ite	-383
ang	-384
vers	-385
▁co	-386
clud	-387
ade	-388
ious	-389
▁only	-390
▁time	-391
ason	-392
▁I	-393
▁than	-394
▁eigh	-395
▁thirty	-396
vent	-397
ount	-398
ake	-399
▁ap	-400
ced	-401
▁pr	-402
▁mo	-403
▁inter	-404
▁rel	-405
▁ob	-406
▁how	-407
int	-408
▁br	-409
▁under	-410
uring	-411
▁may	-412
▁such	-413
▁about	-414
▁ele	-415
ne	-416
amp	-417
les	-418
aw	-419
▁pe	-420
▁ninety	-421
ks	-422
ied	-423
▁gen	-424
▁col	-425
ase	-426
▁play	-427
reat	-428
▁pos	-429
▁rep	-430
ual	-431
ail	-432
elf	-433
▁ye	-434
ject	-435
▁S	-436
▁if	-437
▁forty	-438
▁po	-439
ward	-440
▁sub	-441
▁sec	-442
▁em	-443
iff	-444
very	-445
oun	-446
urn	-447
old	-448
▁app	-449
▁1	-450
▁li	-451
▁act	-452
▁fifty	-453
▁most	-454
▁these	-455
ics	-456
▁includ	-457
land	-458
ors	-459
rib	-460
▁par	-461
▁char	-462
▁betw	-463
▁any	-464
ism	-465
▁between	-466
▁imp	-467
way	-468
▁know	-469
▁“	-470
ero	-471
▁ass	-472
cept	-473
▁sy	-474
the	-475
▁what	-476
fore	-477
▁then	-478
venty	-479
."	-480
iew	-481
▁again	-482
▁ear	-483
▁during	-484
▁fol	-485
▁def	-486
ased	-487
ick	-488
ons	-489
▁rem	-490
led	-491
▁high	-492
".	-493
▁ten	-494
ited	-495
ys	-496
tem	-497
▁ca	-498
▁pres	-499
▁while	-500
▁being	-501
▁thr	-502
▁bl	-503
ert	-504
▁reg	-505
▁jo	-506
ild	-507
20	-508
▁sixty	-509
zero	-510
ood	-511
▁att	-512
▁follow	-513
▁eighty	-514
▁diff	-515
▁cent	-516
ular	-517
▁work	-518
ause	-519
ational	-520
▁ent	-521
▁seventy	-522
▁sou	-523
▁where	-524
olog	-525
▁sa	-526
▁fin	-527
▁fil	-528
ific	-529
▁world	-530
ative	-531
▁ac	-532
ident	-533
▁bel	-534
ts	-535
ise	-536
▁\	-537
ubl	-538
eld	-539
ms	-540
ever	-541
▁fl	-542
▁through	-543
▁The	-544
▁war	-545
▁num	-546
iss	-547
▁lo	-548
▁gener	-549
ible	-550
▁end	-551
ren	-552
ving	-553
▁B	-554
▁you	-555
gan	-556
als	-557
▁dist	-558
ft	-559
▁ret	-560
cted	-561
ck	-562
oph	-563
▁produ	-564
hip	-565
▁spec	-566
▁second	-567
▁car	-568
▁pol	-569
▁inst	-570
▁both	-571
▁many	-572
▁made	-573
ents	-574
▁later	-575
▁fr	-576
▁sch	-577
▁call	-578
ted	-579
▁game	-580
▁state	-581
ten	-582
▁inf	-583
▁nat	-584
ning	-585
▁mod	-586
ican	-587
▁though	-588
end	-589
▁au	-590
ating	-591
▁bu	-592
▁well	-593
▁sim	-594
▁C	-595
own	-596
form	-597
▁supp	-598
▁ep	-599
▁ref	-600
▁H	-601
▁inc	-602
▁appe	-603
tern	-604
ments	-605
ily	-606
▁ter	-607
▁disc	-608
▁just	-609
att	-610
▁before	-611
▁ma	-612
ities	-613
ince	-614
▁P	-615
▁film	-616
ves	-617
▁day	-618
▁bro	-619
▁like	-620
▁pers	-621
▁,	-622
▁eng	-623
..	-624
ife	-625
ained	-626
▁song	-627
▁rele	-628
▁mon	-629
ather	-630
",	-631
ful	-632
ered	-633
▁same	-634
ished	-635
▁mus	-636
▁inv	-637
▁writ	-638
cess	-639
▁phil	-640
thing	-641
ility	-642
▁20	-643
▁exp	-644
▁publ	-645
▁way	-646
▁add	-647
▁own	-648
▁\(	-649
ists	-650
▁against	-651
▁ed	-652
ision	-653
▁set	-654
▁however	-655
ton	-656
▁const	-657
▁cor	-658
▁M	-659
ral	-660
▁mat	-661
▁arg	-662
li	-663
▁because	-664
ures	-665
▁could	-666
▁those	-667
uch	-668
▁sur	-669
▁min	-670
ames	-671
▁record	-672
▁dec	-673
min	-674
other	-675
▁gu	-676
▁show	-677
▁our	-678
▁found	-679
▁sing	-680
▁F	-681
▁lar	-682
▁ord	-683
ower	-684
▁19	-685
ters	-686
▁sm	-687
▁ev	-688
▁str	-689
▁charact	-690
▁said	-691
▁differe	-692
ived	-693
osoph	-694
▁trans	-695
▁op	-696
ble	-697
▁loc	-698
▁epis	-699
velop	-700
ness	-701
▁say	-702
▁my	-703
io	-704
▁used	-705
▁air	-706
▁stud	-707
▁mem	-708
▁long	-709
▁alb	-710
ins	-711
ople	-712
▁number	-713
two	-714
ural	-715
▁did	-716
▁poss	-717
ury	-718
pos	-719
ros	-720
ink	-721
ange	-722
▁mor	-723
▁art	-724
ience	-725
its	-726
ern	-727
pect	-728
gr	-729
▁years	-730
ep	-731
▁season	-732
▁develop	-733
▁point	-734
▁expl	-735
▁north	-736
▁people	-737
▁dire	-738
▁prov	-739
ient	-740
▁another	-741
▁arm	-742
air	-743
▁main	-744
ution	-745
ctions	-746
▁conf	-747
tend	-748
oup	-749
vern	-750
ues	-751
elve	-752
▁W	-753
▁partic	-754
▁soc	-755
ale	-756
▁team	-757
▁even	-758
▁crit	-759
aking	-760
▁lead	-761
ract	-762
▁should	-763
stem	-764
inc	-765
▁view	-766
▁amer	-767
ines	-768
▁men	-769
ivers	-770
▁great	-771
▁back	-772
uss	-773
mber	-774
▁good	-775
▁eff	-776
ically	-777
ired	-778
▁sever	-779
▁cre	-780
▁pass	-781
▁philosoph	-782
▁div	-783
▁belie	-784
xt	-785
▁album	-786
ised	-787
▁giv	-788
▁comple	-789
▁met	-790
▁law	-791
▁contin	-792
son	-793
ll	-794
▁see	-795
▁orig	-796
ually	-797
wh	-798
▁each	-799
▁use	-800
▁city	-801
▁rev	-802
row	-803
gg	-804
▁system	-805
▁desc	-806
up	-807
▁several	-808
ool	-809
▁sign	-810
though	-811
ank	-812
▁states	-813
▁twelve	-814
oy	-815
▁reason	-816
ode	-817
ians	-818
\)	-819
▁var	-820
▁G	-821
▁conc	-822
imes	-823
aim	-824
▁govern	-825
ner	-826
ially	-827
ains	-828
ting	-829
▁series	-830
▁hist	-831
▁origin	-832
itions	-833
▁year	-834
ared	-835
▁since	-836
ave	-837
▁sep	-838
▁ide	-839
rop	-840
ield	-841
ized	-842
▁south	-843
▁following	-844
▁est	-845
▁batt	-846
hn	-847
▁became	-848
▁life	-849
ont	-850
ense	-851
▁L	-852
▁mill	-853
▁exper	-854
ork	-855
▁right	-856
rest	-857
▁much	-858
▁val	-859
ued	-860
▁el	-861
▁ext	-862
▁pop	-863
▁rece	-864
▁music	-865
▁called	-866
▁In	-867
ret	-868
▁cour	-869
▁including	-870
▁pri	-871
▁ins	-872
▁group	-873
ined	-874
▁every	-875
▁fam	-876
▁dep	-877
he	-878
▁different	-879
til	-880
▁eleven	-881
▁event	-882
ided	-883
▁ke	-884
▁coun	-885
▁dem	-886
▁D	-887
▁now	-888
▁real	-889
▁make	-890
▁R	-891
▁character	-892
▁does	-893
▁tra	-894
ute	-895
▁med	-896
▁early	-897
▁mil	-898
▁ship	-899
▁general	-900
cy	-901
▁united	-902
▁z	-903
ross	-904
▁power	-905
ording	-906
▁occ	-907
▁king	-908
ouse	-909
▁must	-910
▁ty	-911
iver	-912
▁brit	-913
▁return	-914
pend	-915
▁oper	-916
▁feat	-917
▁very	-918
na	-919
ley	-920
▁result	-921
▁fact	-922
▁count	-923
orn	-924
ccess	-925
ertain	-926
▁lit	-927
ger	-928
▁known	-929
▁although	-930
▁object	-931
uc	-932
bers	-933
▁design	-934
▁cr	-935
▁without	-936
ock	-937
ark	-938
▁equ	-939
▁har	-940
▁ste	-941
to	-942
ody	-943
▁human	-944
▁rest	-945
▁sw	-946
▁gre	-947
▁best	-948
▁requ	-949
▁ra	-950
▁class	-951
▁land	-952
▁dr	-953
▁open	-954
rist	-955
ove	-956
▁fifteen	-957
arch	-958
▁person	-959
thers	-960
▁sl	-961
▁down	-962
▁describ	-963
▁run	-964
▁claim	-965
ither	-966
wards	-967
ier	-968
▁proper	-969
▁near	-970
▁caus	-971
une	-972
▁episode	-973
▁began	-974
▁along	-975
▁place	-976
▁adv	-977
els	-978
▁public	-979
ene	-980
▁colle	-981
ured	-982
five	-983
ified	-984
ull	-985
erman	-986
▁appro	-987
▁turn	-988
▁until	-989
▁success	-990
self	-991
ately	-992
ron	-993
az	-994
aced	-995
▁upon	-996
▁tri	-997
▁es	-998
be	-999
▁offic	-1000
▁thirteen	-1001
omen	-1002
▁things	-1003
▁hand	-1004
nce	-1005
▁school	-1006
▁john	-1007
▁ge	-1008
not	-1009
▁opp	-1010
aining	-1011
▁large	-1012
ants	-1013
tle	-1014
▁pur	-1015
▁hel	-1016
▁O	-1017
ruct	-1018
▁maj	-1019
▁fur	-1020
▁E	-1021
ash	-1022
akes	-1023
ology	-1024
ider	-1025
▁according	-1026
▁bre	-1027
▁support	-1028
ides	-1029
ional	-1030
▁win	-1031
▁present	-1032
ives	-1033
▁cle	-1034
▁port	-1035
▁aust	-1036
any	-1037
▁exist	-1038
▁fourteen	-1039
▁name	-1040
ris	-1041
ument	-1042
▁among	-1043
ane	-1044
▁book	-1045
▁line	-1046
▁bar	-1047
▁head	-1048
▁child	-1049
▁theory	-1050
▁stand	-1051
▁far	-1052
ium	-1053
▁common	-1054
▁concept	-1055
▁particular	-1056
osed	-1057
▁cap	-1058
six	-1059
▁univers	-1060
▁resp	-1061
▁still	-1062
▁gl	-1063
▁last	-1064
▁la	-1065
▁leg	-1066
▁repres	-1067
ches	-1068
▁national	-1069
▁having	-1070
▁aff	-1071
▁start	-1072
▁himself	-1073
▁order	-1074
gin	-1075
▁took	-1076
▁major	-1077
▁around	-1078
oot	-1079
▁quest	-1080
▁west	-1081
▁cond	-1082
▁nature	-1083
ica	-1084
▁allow	-1085
▁direct	-1086
▁del	-1087
▁sent	-1088
▁small	-1089
med	-1090
▁ann	-1091
ently	-1092
▁released	-1093
▁propos	-1094
▁american	-1095
amed	-1096
▁given	-1097
▁auth	-1098
ences	-1099
by	-1100
incip	-1101
▁attack	-1102
gust	-1103
▁inte	-1104
▁care	-1105
▁never	-1106
▁serv	-1107
▁av	-1108
▁effect	-1109
▁take	-1110
▁bas	-1111
orm	-1112
oss	-1113
ample	-1114
▁million	-1115
aken	-1116
anc	-1117
▁contro	-1118
▁dra	-1119
ilar	-1120
ories	-1121
▁within	-1122
▁polit	-1123
bo	-1124
ds	-1125
▁might	-1126
ality	-1127
ought	-1128
▁vir	-1129
▁wee	-1130
▁inde	-1131
▁command	-1132
▁death	-1133
▁vers	-1134
ann	-1135
▁house	-1136
▁government	-1137
▁need	-1138
▁german	-1139
▁mid	-1140
▁N	-1141
▁case	-1142
raph	-1143
ages	-1144
▁further	-1145
▁single	-1146
▁(1	-1147
ged	-1148
ivid	-1149
▁mean	-1150
por	-1151
▁ju	-1152
ah	-1153
itive	-1154
vious	-1155
▁report	-1156
▁whe	-1157
▁british	-1158
sel	-1159
▁short	-1160
ior	-1161
▁account	-1162
▁build	-1163
▁import	-1164
▁received	-1165
lish	-1166
▁others	-1167
▁seem	-1168
riend	-1169
tter	-1170
▁represent	-1171
und	-1172
tember	-1173
▁road	-1174
▁due	-1175
▁tru	-1176
▁mag	-1177
▁mot	-1178
▁fun	-1179
con	-1180
▁old	-1181
ets	-1182
sequ	-1183
▁appear	-1184
▁thought	-1185
▁beh	-1186
▁left	-1187
tempt	-1188
me	-1189
▁non	-1190
▁final	-1191
▁august	-1192
▁sk	-1193
▁pat	-1194
▁example	-1195
▁often	-1196
▁third	-1197
▁think	-1198
ius	-1199
ling	-1200
we	-1201
▁princip	-1202
three	-1203
▁september	-1204
nine	-1205
lu	-1206
atic	-1207
▁individ	-1208
▁area	-1209
▁iss	-1210
▁less	-1211
▁camp	-1212
read	-1213
ober	-1214
▁underst	-1215
four	-1216
▁prom	-1217
iam	-1218
▁200	-1219
▁‘	-1220
▁similar	-1221
▁oct	-1222
br	-1223
▁km	-1224
▁log	-1225
▁cur	-1226
▁march	-1227
▁mark	-1228
▁jud	-1229
▁incre	-1230
▁deb	-1231
▁pa	-1232
ological	-1233
▁reach	-1234
▁attempt	-1235
▁tem	-1236
▁band	-1237
omin	-1238
ob	-1239
▁capt	-1240
rodu	-1241
▁top	-1242
▁vis	-1243
▁find	-1244
▁intern	-1245
▁century	-1246
▁kind	-1247
▁addition	-1248
▁home	-1249
▁austral	-1250
▁hal	-1251
eng	-1252
ission	-1253
ese	-1254
▁201	-1255
ony	-1256
▁games	-1257
▁sixteen	-1258
▁.	-1259
▁read	-1260
ser	-1261
▁individual	-1262
▁east	-1263
ention	-1264
▁commun	-1265
ogn	-1266
▁god	-1267
ggest	-1268
▁cal	-1269
▁subject	-1270
com	-1271
▁proble	-1272
selves	-1273
ple	-1274
ances	-1275
ledge	-1276
▁suggest	-1277
ament	-1278
▁certain	-1279
▁kill	-1280
▁er	-1281
▁suff	-1282
▁invol	-1283
ored	-1284
▁organ	-1285
thern	-1286
ik	-1287
ina	-1288
▁squ	-1289
▁eu	-1290
▁tour	-1291
▁sol	-1292
port	-1293
▁body	-1294
mer	-1295
▁october	-1296
▁ident	-1297
▁times	-1298
▁force	-1299
▁rather	-1300
▁vict	-1301
...	-1302
ilt	-1303
▁itself	-1304
▁ant	-1305
▁thus	-1306
▁water	-1307
▁army	-1308
▁help	-1309
ric	-1310
▁possible	-1311
ril	-1312
rote	-1313
▁ir	-1314
▁true	-1315
ying	-1316
▁natural	-1317
istic	-1318
iety	-1319
▁express	-1320
▁mind	-1321
▁necess	-1322
▁tit	-1323
▁fore	-1324
ases	-1325
▁This	-1326
▁friend	-1327
mb	-1328
▁interest	-1329
▁town	-1330
▁role	-1331
▁came	-1332
omet	-1333
▁family	-1334
ably	-1335
▁move	-1336
sh	-1337
▁light	-1338
ices	-1339
▁dece	-1340
▁fre	-1341
de	-1342
▁too	-1343
ulation	-1344
▁whether	-1345
▁trad	-1346
▁repl	-1347
▁super	-1348
idge	-1349
ize	-1350
▁review	-1351
▁battle	-1352
▁island	-1353
▁post	-1354
▁next	-1355
oci	-1356
ov	-1357
▁free	-1358
augh	-1359
▁relations	-1360
▁described	-1361
▁author	-1362
▁ang	-1363
▁rom	-1364
▁led	-1365
tended	-1366
▁jan	-1367
▁stre	-1368
▁former	-1369
▁june	-1370
iet	-1371
▁dam	-1372
▁dest	-1373
iod	-1374
▁eas	-1375
▁sevent	-1376
aged	-1377
▁perform	-1378
que	-1379
ried	-1380
uary	-1381
▁original	-1382
enn	-1383
bert	-1384
erence	-1385
▁species	-1386
▁july	-1387
ital	-1388
▁ground	-1389
▁sense	-1390
ript	-1391
▁included	-1392
ales	-1393
▁story	-1394
avy	-1395
▁init	-1396
▁nove	-1397
▁previous	-1398
▁cir	-1399
▁november	-1400
uted	-1401
ways	-1402
ague	-1403
▁either	-1404
▁estab	-1405
▁members	-1406
▁wrote	-1407
▁york	-1408
of	-1409
▁company	-1410
▁wind	-1411
lect	-1412
ec	-1413
▁put	-1414
▁river	-1415
▁influ	-1416
▁black	-1417
▁position	-1418
▁april	-1419
▁few	-1420
▁cast	-1421
▁pract	-1422
ively	-1423
ler	-1424
▁based	-1425
▁hold	-1426
▁anim	-1427
▁associ	-1428
▁sound	-1429
▁phys	-1430
ats	-1431
▁lim	-1432
ths	-1433
▁K	-1434
▁side	-1435
▁strong	-1436
▁discuss	-1437
▁deter	-1438
▁bus	-1439
▁cannot	-1440
▁ru	-1441
▁moral	-1442
angu	-1443
▁rad	-1444
▁played	-1445
ps	-1446
▁consider	-1447
ring	-1448
ax	-1449
▁late	-1450
▁held	-1451
▁track	-1452
▁become	-1453
▁your	-1454
▁social	-1455
▁park	-1456
▁knowledge	-1457
▁little	-1458
idered	-1459
▁period	-1460
▁hy	-1461
▁anal	-1462
iness	-1463
▁youn	-1464
▁won	-1465
▁test	-1466
ograph	-1467
▁vide	-1468
.,	-1469
mit	-1470
▁sold	-1471
day	-1472
apan	-1473
▁eighteen	-1474
▁lat	-1475
ateg	-1476
rench	-1477
▁want	-1478
▁club	-1479
idence	-1480
▁considered	-1481
▁december	-1482
atch	-1483
▁distin	-1484
▁contr	-1485
▁sit	-1486
▁sum	-1487
ator	-1488
▁desp	-1489
▁du	-1490
▁histor	-1491
▁gun	-1492
alth	-1493
ards	-1494
▁fail	-1495
ival	-1496
▁process	-1497
▁january	-1498
gether	-1499
▁obser	-1500
ability	-1501
▁respect	-1502
▁important	-1503
ball	-1504
ential	-1505
▁self	-1506
▁question	-1507
▁political	-1508
▁comb	-1509
▁-	-1510
▁prof	-1511
▁idea	-1512
▁struct	-1513
▁history	-1514
▁circ	-1515
ead	-1516
▁days	-1517
▁son	-1518
ott	-1519
sy	-1520
▁named	-1521
ney	-1522
▁tre	-1523
iving	-1524
▁themselves	-1525
erc	-1526
less	-1527
ew	-1528
lo	-1529
▁action	-1530
▁division	-1531
rope	-1532
▁fle	-1533
▁list	-1534
▁perfor	-1535
▁constru	-1536
▁rese	-1537
▁once	-1538
ering	-1539
▁country	-1540
▁control	-1541
▁plan	-1542
▁chang	-1543
▁pred	-1544
ency	-1545
▁tele	-1546
▁philosophy	-1547
▁ve	-1548
iment	-1549
▁yet	-1550
▁least	-1551
alk	-1552
▁ill	-1553
▁prim	-1554
▁level	-1555
ae	-1556
▁approach	-1557
▁cy	-1558
use	-1559
erg	-1560
▁red	-1561
▁field	-1562
▁tech	-1563
▁(19	-1564
▁come	-1565
▁look	-1566
co	-1567
▁bill	-1568
▁japan	-1569
side	-1570
ham	-1571
▁fire	-1572
▁women	-1573
▁fall	-1574
▁terms	-1575
ery	-1576
▁vol	-1577
bru	-1578
yal	-1579
▁milit	-1580
▁taken	-1581
▁tot	-1582
▁love	-1583
▁langu	-1584
▁emp	-1585
▁white	-1586
raft	-1587
▁version	-1588
▁clear	-1589
ibility	-1590
aster	-1591
▁star	-1592
▁understand	-1593
cent	-1594
oint	-1595
aps	-1596
▁something	-1597
▁christ	-1598
▁various	-1599
▁dou	-1600
gress	-1601
urch	-1602
▁therefore	-1603
▁truth	-1604
most	-1605
▁commit	-1606
▁den	-1607
▁rou	-1608
▁match	-1609
▁children	-1610
line	-1611
▁performan	-1612
ye	-1613
▁champ	-1614
▁ho	-1615
▁built	-1616
▁pra	-1617
bs	-1618
▁tro	-1619
▁storm	-1620
acy	-1621
gram	-1622
▁video	-1623
bruary	-1624
▁development	-1625
▁get	-1626
▁let	-1627
▁local	-1628
pped	-1629
▁away	-1630
▁bir	-1631
▁league	-1632
▁arch	-1633
twenty	-1634
rican	-1635
▁service	-1636
ford	-1637
▁sat	-1638
▁199	-1639
▁experience	-1640
▁inform	-1641
▁foot	-1642
▁lab	-1643
▁together	-1644
let	-1645
ification	-1646
▁continued	-1647
▁making	-1648
sc	-1649
▁seventeen	-1650
▁mount	-1651
▁thing	-1652
ization	-1653
oth	-1654
▁happ	-1655
▁february	-1656
▁cross	-1657
ister	-1658
▁ple	-1659
▁ver	-1660
fe	-1661
▁gave	-1662
▁critic	-1663
▁award	-1664
▁\(\	-1665
▁regard	-1666
▁treat	-1667
▁university	-1668
▁hon	-1669
xim	-1670
▁went	-1671
ma	-1672
▁able	-1673
▁fac	-1674
▁route	-1675
▁press	-1676
▁introdu	-1677
▁seen	-1678
▁begin	-1679
used	-1680
ison	-1681
▁project	-1682
▁europe	-1683
▁occur	-1684
▁half	-1685
▁cho	-1686
▁signific	-1687
▁dev	-1688
▁cult	-1689
ties	-1690
▁subst	-1691
▁low	-1692
ush	-1693
▁prote	-1694
pet	-1695
▁president	-1696
ploy	-1697
der	-1698
▁night	-1699
olution	-1700
ination	-1701
▁stat	-1702
itch	-1703
▁here	-1704
pec	-1705
val	-1706
▁using	-1707
ief	-1708
go	-1709
▁french	-1710
ones	-1711
▁fav	-1712
▁accept	-1713
▁It	-1714
▁mich	-1715
estern	-1716
▁above	-1717
▁program	-1718
ges	-1719
▁young	-1720
▁moved	-1721
▁For	-1722
over	-1723
ceed	-1724
ened	-1725
▁special	-1726
▁father	-1727
▁close	-1728
▁rul	-1729
▁court	-1730
▁bur	-1731
▁det	-1732
▁works	-1733
▁despite	-1734
▁decl	-1735
ots	-1736
▁age	-1737
▁written	-1738
rent	-1739
play	-1740
▁diffic	-1741
▁lost	-1742
▁rock	-1743
▁forces	-1744
elt	-1745
▁full	-1746
thir	-1747
aring	-1748
▁fem	-1749
ours	-1750
clus	-1751
af	-1752
eight	-1753
▁release	-1754
▁include	-1755
▁defe	-1756
▁hur	-1757
▁belief	-1758
utes	-1759
▁pain	-1760
▁prob	-1761
▁give	-1762
seven	-1763
arent	-1764
▁william	-1765
▁redu	-1766
▁live	-1767
▁interp	-1768
▁means	-1769
▁elect	-1770
ned	-1771
▁ever	-1772
su	-1773
▁tradition	-1774
rie	-1775
▁broad	-1776
▁virt	-1777
▁neg	-1778
▁instead	-1779
▁hard	-1780
▁argument	-1781
▁central	-1782
▁party	-1783
▁player	-1784
thod	-1785
craft	-1786
▁production	-1787
▁space	-1788
ropical	-1789
ature	-1790
▁But	-1791
▁fort	-1792
▁church	-1793
asure	-1794
▁better	-1795
ops	-1796
▁ask	-1797
▁abs	-1798
▁nothing	-1799
ensive	-1800
▁published	-1801
▁always	-1802
▁constit	-1803
▁ess	-1804
itud	-1805
▁fa	-1806
▁vi	-1807
▁concern	-1808
▁science	-1809
▁don	-1810
▁week	-1811
▁geor	-1812
▁rich	-1813
▁2	-1814
▁sal	-1815
tr	-1816
fer	-1817
ls	-1818
▁relig	-1819
▁techn	-1820
▁england	-1821
aph	-1822
▁typ	-1823
▁sens	-1824
▁mater	-1825
▁hor	-1826
rict	-1827
get	-1828
ocr	-1829
▁total	-1830
▁produced	-1831
▁military	-1832
ries	-1833
▁matter	-1834
▁sty	-1835
arily	-1836
ex	-1837
▁modern	-1838
ox	-1839
▁cop	-1840
▁gold	-1841
▁activ	-1842
▁language	-1843
▁ships	-1844
▁sea	-1845
gen	-1846
▁whom	-1847
▁independ	-1848
▁mass	-1849
yr	-1850
▁building	-1851
,"	-1852
sw	-1853
▁shall	-1854
▁points	-1855
▁whole	-1856
like	-1857
▁complete	-1858
▁parts	-1859
▁cause	-1860
▁royal	-1861
dom	-1862
▁developed	-1863
aign	-1864
▁songs	-1865
▁ce	-1866
yn	-1867
medi	-1868
vision	-1869
▁international	-1870
rew	-1871
ata	-1872
▁x	-1873
▁popular	-1874
▁destro	-1875
ires	-1876
▁returned	-1877
▁becom	-1878
aces	-1879
mon	-1880
▁announ	-1881
ising	-1882
see	-1883
eral	-1884
▁stated	-1885
▁county	-1886
▁bi	-1887
ration	-1888
▁nineteen	-1889
▁gra	-1890
▁miss	-1891
ondon	-1892
▁english	-1893
ote	-1894
▁sen	-1895
▁defin	-1896
▁change	-1897
▁chart	-1898
▁arri	-1899
▁fund	-1900
▁problem	-1901
▁lear	-1902
▁prior	-1903
▁pot	-1904
orts	-1905
etic	-1906
▁throughout	-1907
▁entire	-1908
▁appl	-1909
▁(20	-1910
▁assum	-1911
▁hol	-1912
▁whose	-1913
work	-1914
▁objects	-1915
▁determin	-1916
ises	-1917
den	-1918
▁priv	-1919
▁	-1920
e	-1921
t	-1922
a	-1923
n	-1924
i	-1925
o	-1926
s	-1927
r	-1928
h	-1929
d	-1930
l	-1931
c	-1932
u	-1933
m	-1934
f	-1935
p	-1936
g	-1937
w	-1938
y	-1939
b	-1940
,	-1941
v	-1942
.	-1943
k	-1944
-	-1945
x	-1946
"	-1947
j	-1948
(	-1949
)	-1950
'	-1951
z	-1952
q	-1953
;	-1954
:	-1955
1	-1956
\	-1957
T	-1958
0	-1959
2	-1960
9	-1961
A	-1962
’	-1963
I	-1964
S	-1965
“	-1966
”	-1967
B	-1968
C	-1969
P	-1970
H	-1971
M	-1972
F	-1973
8	-1974
3	-1975
W	-1976
5	-1977
7	-1978
G	-1979
L	-1980
4	-1981
D	-1982
R	-1983
?	-1984
6	-1985
E	-1986
O	-1987
N	-1988
—	-1989
K	-1990
‘	-1991
–	-1992
[	-1993
]	-1994
!	-1995
